#ifndef MODEL_H
#define MODEL_H

// Lightweight classification model: Normal, Resting, Bed Exit, Inactive, Fall
// Size: 3540 bytes

const unsigned char g_model[] __attribute__((aligned(8))) = {
    0x1c, 0x00, 0x00, 0x00, 0x54, 0x46, 0x4c, 0x33, 0x14, 0x00, 0x20, 0x00,
    0x1c, 0x00, 0x18, 0x00, 0x14, 0x00, 0x10, 0x00, 0x0c, 0x00, 0x00, 0x00,
    0x08, 0x00, 0x04, 0x00, 0x14, 0x00, 0x00, 0x00, 0x1c, 0x00, 0x00, 0x00,
    0x98, 0x00, 0x00, 0x00, 0xf0, 0x00, 0x00, 0x00, 0x64, 0x07, 0x00, 0x00,
    0x74, 0x07, 0x00, 0x00, 0x70, 0x0d, 0x00, 0x00, 0x03, 0x00, 0x00, 0x00,
    0x01, 0x00, 0x00, 0x00, 0x10, 0x00, 0x00, 0x00, 0x00, 0x00, 0x0a, 0x00,
    0x10, 0x00, 0x0c, 0x00, 0x08, 0x00, 0x04, 0x00, 0x0a, 0x00, 0x00, 0x00,
    0x0c, 0x00, 0x00, 0x00, 0x1c, 0x00, 0x00, 0x00, 0x3c, 0x00, 0x00, 0x00,
    0x0f, 0x00, 0x00, 0x00, 0x73, 0x65, 0x72, 0x76, 0x69, 0x6e, 0x67, 0x5f,
    0x64, 0x65, 0x66, 0x61, 0x75, 0x6c, 0x74, 0x00, 0x01, 0x00, 0x00, 0x00,
    0x04, 0x00, 0x00, 0x00, 0x90, 0xff, 0xff, 0xff, 0x0a, 0x00, 0x00, 0x00,
    0x04, 0x00, 0x00, 0x00, 0x08, 0x00, 0x00, 0x00, 0x6f, 0x75, 0x74, 0x70,
    0x75, 0x74, 0x5f, 0x30, 0x00, 0x00, 0x00, 0x00, 0x01, 0x00, 0x00, 0x00,
    0x04, 0x00, 0x00, 0x00, 0x82, 0xf8, 0xff, 0xff, 0x04, 0x00, 0x00, 0x00,
    0x0c, 0x00, 0x00, 0x00, 0x6b, 0x65, 0x72, 0x61, 0x73, 0x5f, 0x74, 0x65,
    0x6e, 0x73, 0x6f, 0x72, 0x00, 0x00, 0x00, 0x00, 0x02, 0x00, 0x00, 0x00,
    0x34, 0x00, 0x00, 0x00, 0x04, 0x00, 0x00, 0x00, 0xdc, 0xff, 0xff, 0xff,
    0x0d, 0x00, 0x00, 0x00, 0x04, 0x00, 0x00, 0x00, 0x13, 0x00, 0x00, 0x00,
    0x43, 0x4f, 0x4e, 0x56, 0x45, 0x52, 0x53, 0x49, 0x4f, 0x4e, 0x5f, 0x4d,
    0x45, 0x54, 0x41, 0x44, 0x41, 0x54, 0x41, 0x00, 0x08, 0x00, 0x0c, 0x00,
    0x08, 0x00, 0x04, 0x00, 0x08, 0x00, 0x00, 0x00, 0x0c, 0x00, 0x00, 0x00,
    0x04, 0x00, 0x00, 0x00, 0x13, 0x00, 0x00, 0x00, 0x6d, 0x69, 0x6e, 0x5f,
    0x72, 0x75, 0x6e, 0x74, 0x69, 0x6d, 0x65, 0x5f, 0x76, 0x65, 0x72, 0x73,
    0x69, 0x6f, 0x6e, 0x00, 0x0e, 0x00, 0x00, 0x00, 0x70, 0x06, 0x00, 0x00,
    0x68, 0x06, 0x00, 0x00, 0x38, 0x06, 0x00, 0x00, 0x14, 0x06, 0x00, 0x00,
    0x64, 0x05, 0x00, 0x00, 0x54, 0x03, 0x00, 0x00, 0x04, 0x01, 0x00, 0x00,
    0xb4, 0x00, 0x00, 0x00, 0xac, 0x00, 0x00, 0x00, 0xa4, 0x00, 0x00, 0x00,
    0x9c, 0x00, 0x00, 0x00, 0x94, 0x00, 0x00, 0x00, 0x74, 0x00, 0x00, 0x00,
    0x04, 0x00, 0x00, 0x00, 0x36, 0xf9, 0xff, 0xff, 0x04, 0x00, 0x00, 0x00,
    0x60, 0x00, 0x00, 0x00, 0x0c, 0x00, 0x00, 0x00, 0x08, 0x00, 0x0e, 0x00,
    0x08, 0x00, 0x04, 0x00, 0x08, 0x00, 0x00, 0x00, 0x10, 0x00, 0x00, 0x00,
    0x28, 0x00, 0x00, 0x00, 0x00, 0x00, 0x06, 0x00, 0x08, 0x00, 0x04, 0x00,
    0x06, 0x00, 0x00, 0x00, 0x04, 0x00, 0x00, 0x00, 0x01, 0x00, 0x00, 0x00,
    0xea, 0x03, 0x00, 0x00, 0x0c, 0x00, 0x18, 0x00, 0x14, 0x00, 0x10, 0x00,
    0x0c, 0x00, 0x04, 0x00, 0x0c, 0x00, 0x00, 0x00, 0x10, 0x62, 0x5b, 0xe9,
    0x3e, 0x67, 0x2f, 0x05, 0x02, 0x00, 0x00, 0x00, 0x02, 0x00, 0x00, 0x00,
    0x04, 0x00, 0x00, 0x00, 0x06, 0x00, 0x00, 0x00, 0x32, 0x2e, 0x32, 0x31,
    0x2e, 0x30, 0x00, 0x00, 0xa2, 0xf9, 0xff, 0xff, 0x04, 0x00, 0x00, 0x00,
    0x10, 0x00, 0x00, 0x00, 0x31, 0x2e, 0x35, 0x2e, 0x30, 0x00, 0x00, 0x00,
    0x00, 0x00, 0x00, 0x00, 0x00, 0x00, 0x00, 0x00, 0x70, 0xf4, 0xff, 0xff,
    0x74, 0xf4, 0xff, 0xff, 0x78, 0xf4, 0xff, 0xff, 0x7c, 0xf4, 0xff, 0xff,
    0xce, 0xf9, 0xff, 0xff, 0x04, 0x00, 0x00, 0x00, 0x40, 0x00, 0x00, 0x00,
    0x9e, 0x86, 0x79, 0x3f, 0x32, 0x48, 0xd3, 0x3e, 0xfa, 0xd8, 0x3d, 0xbe,
    0x87, 0x5e, 0x50, 0x3f, 0xa0, 0xc0, 0xd8, 0xbe, 0xa2, 0x0c, 0x88, 0xbf,
    0x09, 0x38, 0x8c, 0x3f, 0x96, 0x90, 0x1b, 0x40, 0x81, 0x5d, 0x65, 0xbf,
    0x9b, 0xe2, 0xea, 0x3e, 0xcf, 0x03, 0x2e, 0x3f, 0xca, 0x48, 0x2b, 0xbc,
    0xec, 0xb6, 0x16, 0x3f, 0xde, 0x0d, 0xd0, 0xbf, 0xe6, 0x5f, 0xa8, 0xbd,
    0x81, 0x32, 0x51, 0xbf, 0x1a, 0xfa, 0xff, 0xff, 0x04, 0x00, 0x00, 0x00,
    0x40, 0x02, 0x00, 0x00, 0xe2, 0x18, 0x44, 0x3f, 0xe0, 0x8e, 0xd6, 0x3d,
    0x40, 0x86, 0x8b, 0x3d, 0x10, 0xe9, 0xef, 0x3d, 0xc7, 0x82, 0x67, 0x3d,
    0xb3, 0x71, 0x3a, 0xbe, 0x0c, 0x16, 0x92, 0x3f, 0xd3, 0x3d, 0x43, 0x3f,
    0x0b, 0x12, 0x9b, 0xbd, 0x47, 0x0b, 0xb3, 0x3e, 0x7b, 0x27, 0xcf, 0x3f,
    0x51, 0x11, 0x98, 0xbd, 0xda, 0xb2, 0x7d, 0x3e, 0xcc, 0xb2, 0xe1, 0x3d,
    0xab, 0xaa, 0x23, 0xbe, 0x0b, 0x72, 0x92, 0xbe, 0x45, 0x85, 0x19, 0x3e,
    0xc5, 0xa6, 0xa4, 0x3b, 0x9f, 0x9f, 0x18, 0x40, 0x3e, 0xc8, 0xd7, 0xbe,
    0xbe, 0x65, 0x91, 0xbe, 0x0e, 0xc8, 0xe4, 0xbd, 0xe3, 0x1f, 0x3a, 0xbe,
    0x50, 0xae, 0x10, 0x3e, 0xde, 0x45, 0x15, 0x3f, 0x23, 0xf9, 0xdb, 0xbe,
    0x42, 0x72, 0x8a, 0x3b, 0x9e, 0xdb, 0x4c, 0x3e, 0xd6, 0x92, 0xb6, 0xbe,
    0x59, 0x22, 0xa2, 0xbc, 0x85, 0xf4, 0x07, 0x3f, 0x49, 0xca, 0xac, 0xbe,
    0x9d, 0x2f, 0x1c, 0xbc, 0xf2, 0xde, 0x8c, 0x3f, 0xb2, 0x15, 0x8f, 0xbe,
    0xf1, 0xce, 0xad, 0x3c, 0xd8, 0xb5, 0xcb, 0x3f, 0x73, 0x66, 0x11, 0xbe,
    0x5b, 0x00, 0x64, 0x3d, 0x7d, 0xac, 0xf3, 0xbc, 0x3f, 0xf2, 0xe3, 0xb9,
    0xdb, 0x39, 0xbf, 0xbd, 0x17, 0xd9, 0x7b, 0xbf, 0x1a, 0x27, 0x50, 0x3c,
    0xba, 0x72, 0x24, 0xbd, 0x09, 0x86, 0x45, 0x3e, 0xc4, 0xf2, 0x64, 0xbc,
    0x12, 0x54, 0x2b, 0x3c, 0xdb, 0x24, 0x7b, 0x3b, 0x9a, 0xdd, 0x4f, 0xbc,
    0x6c, 0x3c, 0x11, 0xbd, 0x12, 0xac, 0x02, 0x40, 0x2d, 0xb4, 0x6f, 0x3d,
    0x1f, 0x7d, 0x35, 0x3c, 0xdd, 0x89, 0x44, 0x3f, 0x13, 0x03, 0x43, 0xbd,
    0xbb, 0x11, 0xa1, 0x3d, 0x53, 0x12, 0xaa, 0x3c, 0x53, 0xd1, 0x60, 0x3c,
    0x8d, 0xd5, 0x0e, 0x3e, 0x18, 0x9e, 0x58, 0xbe, 0x25, 0x79, 0x88, 0x3f,
    0x01, 0xef, 0x3a, 0x3f, 0x86, 0x32, 0x0e, 0xbf, 0xc4, 0x3c, 0x3b, 0x3d,
    0x17, 0x7f, 0x9b, 0x3d, 0xdc, 0xfa, 0x2d, 0x3e, 0xdd, 0x7d, 0xbe, 0x3c,
    0x25, 0x3d, 0x9e, 0xbd, 0xbe, 0x51, 0x7b, 0x3f, 0x34, 0x59, 0x00, 0xbf,
    0xdc, 0x46, 0x8d, 0xbe, 0xf7, 0x89, 0x8e, 0xbe, 0x4b, 0x5d, 0xe9, 0xbe,
    0x34, 0xbb, 0xea, 0xbc, 0x80, 0xfe, 0x0b, 0xbc, 0x55, 0xa2, 0x99, 0x3e,
    0xa6, 0x28, 0x96, 0xbe, 0x50, 0xf7, 0xaf, 0xbf, 0xe4, 0x70, 0x5f, 0xbd,
    0x23, 0xc3, 0x78, 0x3e, 0x1c, 0xf6, 0xb5, 0xbe, 0x81, 0x0c, 0x15, 0x3d,
    0x84, 0xf1, 0x0c, 0xbe, 0xd6, 0x82, 0x09, 0x3f, 0xea, 0x9c, 0x32, 0x3f,
    0x05, 0x57, 0x77, 0x3f, 0xd5, 0x82, 0xc0, 0xbb, 0x3f, 0x7c, 0x7c, 0x3c,
    0xd6, 0x64, 0xdb, 0x3b, 0x6c, 0xd6, 0x03, 0xbf, 0xa4, 0xff, 0xbd, 0x3d,
    0x27, 0x89, 0xc6, 0x3c, 0xef, 0x01, 0x03, 0xbd, 0xc6, 0xf5, 0x7e, 0xbf,
    0xcc, 0xf8, 0x00, 0x3f, 0x57, 0xc6, 0x8a, 0xbd, 0xd0, 0xc3, 0x3e, 0xbc,
    0x96, 0xfc, 0xd1, 0xbc, 0x55, 0x1e, 0x86, 0x3d, 0xf5, 0xad, 0x44, 0xbe,
    0xfd, 0xa7, 0x98, 0xbe, 0xce, 0x07, 0xe3, 0x3c, 0x0a, 0xdb, 0x52, 0xbe,
    0x28, 0x75, 0x17, 0xbe, 0xb4, 0xc6, 0x3b, 0x3f, 0x41, 0x26, 0x4c, 0x3f,
    0x0c, 0x1d, 0x22, 0xbf, 0x32, 0xa2, 0xa3, 0xbe, 0xb3, 0x8f, 0xb2, 0x3e,
    0x41, 0x07, 0x85, 0x3f, 0x75, 0x87, 0x18, 0x3e, 0xba, 0xa1, 0x19, 0xbe,
    0xa9, 0x55, 0x8f, 0x3d, 0xac, 0x74, 0xa5, 0x3c, 0x56, 0xbb, 0x6b, 0xbe,
    0x68, 0xdf, 0x48, 0x3d, 0x1f, 0xd3, 0x9f, 0xbe, 0x9e, 0x72, 0xab, 0x3e,
    0x62, 0x8d, 0x43, 0x3d, 0x44, 0xf8, 0x45, 0x3d, 0xdc, 0xe2, 0x62, 0xbc,
    0x02, 0x7b, 0x9b, 0xbc, 0x03, 0xee, 0x4c, 0xc0, 0x4c, 0x67, 0x28, 0xbe,
    0x3f, 0x11, 0xc9, 0xbd, 0x92, 0xa9, 0x53, 0xbe, 0xa3, 0xa6, 0xae, 0xbd,
    0x68, 0xd1, 0x69, 0x3c, 0x25, 0xda, 0xc8, 0x3e, 0xa5, 0xfe, 0xb0, 0xbd,
    0x79, 0x80, 0xce, 0xbf, 0xc9, 0x20, 0xe7, 0xbc, 0x0f, 0x71, 0x80, 0xbc,
    0x6f, 0xd0, 0xb5, 0x3c, 0x84, 0xfc, 0x5a, 0xbf, 0x87, 0xd2, 0x1b, 0xbf,
    0xfd, 0x6f, 0x38, 0x3d, 0x97, 0xd1, 0xa7, 0x3d, 0xd8, 0xda, 0x75, 0xbd,
    0x08, 0x8b, 0xe7, 0x3d, 0x10, 0x0d, 0xfc, 0xbf, 0xf2, 0x50, 0x3c, 0xbf,
    0x41, 0x0d, 0xe4, 0xbe, 0x66, 0xfc, 0xff, 0xff, 0x04, 0x00, 0x00, 0x00,
    0x00, 0x02, 0x00, 0x00, 0x5c, 0x43, 0xdb, 0xbe, 0xc9, 0x84, 0x0b, 0xbf,
    0xcc, 0xec, 0x15, 0xbf, 0x76, 0x46, 0x37, 0xbe, 0x41, 0xeb, 0x38, 0xbf,
    0x38, 0xdf, 0xa3, 0xbf, 0xcd, 0xbc, 0x0a, 0xc0, 0x62, 0x2f, 0x98, 0x3f,
    0x52, 0xd3, 0xfd, 0xbf, 0xab, 0x0f, 0x7d, 0x3d, 0xee, 0x41, 0x8b, 0xbc,
    0xaf, 0x20, 0xa2, 0xbe, 0x2e, 0x5c, 0xb7, 0xbc, 0xd4, 0x3e, 0x6b, 0xbf,
    0x08, 0x3d, 0x49, 0xbe, 0x71, 0xa7, 0x54, 0x3e, 0x9a, 0x05, 0x3c, 0xbe,
    0x87, 0x92, 0x0f, 0x3f, 0x2e, 0xaa, 0x7b, 0x3e, 0x78, 0xa7, 0xaa, 0xbe,
    0x1d, 0x07, 0x3c, 0x3f, 0xb1, 0x78, 0x47, 0xc0, 0x6c, 0x51, 0x10, 0x3f,
    0x4c, 0xbd, 0x6b, 0xbe, 0x5d, 0x01, 0xe6, 0x3e, 0xbd, 0x75, 0xc5, 0x3e,
    0xbe, 0xe8, 0x30, 0x3f, 0x40, 0x28, 0xd9, 0x3e, 0x1c, 0x7a, 0x37, 0x3f,
    0x6b, 0x10, 0xaf, 0x3f, 0xb4, 0x66, 0x98, 0x3e, 0x65, 0xbd, 0x83, 0x3f,
    0xca, 0xba, 0x46, 0x3f, 0x90, 0x65, 0x04, 0x3f, 0x57, 0x32, 0x2f, 0x3f,
    0x9f, 0x0a, 0x75, 0x3f, 0xed, 0x7c, 0xf2, 0xbf, 0xe1, 0x55, 0x90, 0xbf,
    0x7f, 0x84, 0xed, 0x3d, 0x8e, 0x11, 0x7b, 0x3f, 0x5d, 0x0d, 0xd7, 0xbf,
    0x38, 0x09, 0x93, 0xbf, 0x3f, 0x15, 0x64, 0xbf, 0xb1, 0x59, 0x91, 0xbd,
    0x97, 0x92, 0xf1, 0x3e, 0x9c, 0x71, 0xdd, 0x3e, 0x6d, 0x03, 0x71, 0xbf,
    0x57, 0x19, 0x0c, 0x3f, 0x0a, 0xde, 0xbc, 0x3e, 0x35, 0xe6, 0x22, 0xbf,
    0xed, 0xe0, 0xc8, 0xbf, 0xa7, 0x9c, 0x52, 0xbe, 0x79, 0x15, 0x4d, 0xbf,
    0x0c, 0xfa, 0x8e, 0xbe, 0x69, 0xb1, 0xd4, 0x3e, 0x51, 0x9f, 0x0b, 0x3d,
    0xe3, 0x81, 0x14, 0xbf, 0x35, 0x79, 0xb2, 0x3d, 0x49, 0xd5, 0xca, 0x3e,
    0x66, 0x24, 0xee, 0x3e, 0xc5, 0x92, 0xc9, 0xbf, 0x67, 0xd2, 0x87, 0x3f,
    0x06, 0x0c, 0xb2, 0x3c, 0x8e, 0xfa, 0xab, 0xbf, 0xe2, 0xf8, 0x01, 0xbe,
    0xbe, 0xd8, 0xc1, 0x3e, 0x6f, 0xc9, 0x03, 0x3f, 0x1e, 0x3a, 0x4e, 0xbc,
    0x71, 0xbc, 0xbd, 0x3f, 0xbf, 0x90, 0xea, 0x3f, 0x6e, 0xdb, 0x31, 0xbe,
    0x29, 0x68, 0x47, 0xbd, 0x09, 0xed, 0xf8, 0x3e, 0x98, 0x18, 0xce, 0x3e,
    0x1b, 0x4c, 0xfe, 0x3e, 0xeb, 0xfa, 0xa6, 0x3e, 0x43, 0x8c, 0xd4, 0x3b,
    0x95, 0xd0, 0x13, 0x40, 0xd9, 0x70, 0x87, 0x3e, 0xee, 0x85, 0xaa, 0x3f,
    0xb8, 0x23, 0x45, 0x3f, 0x3b, 0x0c, 0x88, 0xbe, 0x49, 0x0c, 0xd3, 0x3e,
    0xc0, 0x41, 0x8b, 0x3e, 0x9a, 0x67, 0xf8, 0x3e, 0x34, 0x24, 0x7d, 0x3f,
    0xed, 0x49, 0x12, 0x3f, 0xd2, 0xb5, 0xc0, 0x3f, 0x1f, 0x25, 0x7b, 0xbd,
    0xc1, 0x75, 0xb4, 0x3e, 0x02, 0xa3, 0x08, 0x3f, 0x18, 0x7d, 0xe5, 0x3e,
    0x40, 0x3c, 0x76, 0x3e, 0xd0, 0xfe, 0xfe, 0xbf, 0x45, 0x5f, 0xbf, 0x3d,
    0x20, 0xa9, 0xbf, 0xbf, 0xc8, 0x30, 0x69, 0xbf, 0xe5, 0x38, 0x3f, 0x3f,
    0xc1, 0x9d, 0x43, 0x3e, 0x56, 0xb1, 0xb6, 0xbe, 0x18, 0xe7, 0xb7, 0xbe,
    0xad, 0xfe, 0xe2, 0xbf, 0x70, 0x0c, 0xb6, 0x3d, 0x53, 0x29, 0xcf, 0x3f,
    0x07, 0xf4, 0x38, 0xbf, 0xa6, 0x8e, 0x26, 0x3e, 0xb5, 0xfb, 0x9e, 0x3e,
    0xd6, 0x2c, 0xe8, 0xbe, 0x0f, 0xa1, 0x89, 0x3e, 0xa5, 0xb5, 0xcd, 0xbf,
    0x1a, 0x53, 0x93, 0x3e, 0xd6, 0x33, 0x3a, 0x3e, 0x64, 0x13, 0x06, 0xbe,
    0x08, 0xa3, 0xb4, 0x3e, 0xda, 0x50, 0xd1, 0xbf, 0xd2, 0x5f, 0x77, 0x3f,
    0x26, 0xaa, 0x2b, 0x3e, 0x4b, 0x40, 0xc9, 0xbd, 0x0e, 0x0f, 0x52, 0xbf,
    0x70, 0xcf, 0x17, 0x3f, 0xca, 0x38, 0xf4, 0xbe, 0xcc, 0x94, 0x95, 0xbf,
    0x5a, 0x14, 0x47, 0xbf, 0xad, 0xa8, 0xd2, 0xbf, 0xf0, 0xb1, 0x3f, 0x3e,
    0x31, 0x2d, 0xee, 0xbf, 0xe1, 0x14, 0xa8, 0xbf, 0xb7, 0xe6, 0x19, 0x3f,
    0x72, 0xfe, 0xff, 0xff, 0x04, 0x00, 0x00, 0x00, 0xa0, 0x00, 0x00, 0x00,
    0x77, 0x8f, 0x0b, 0x40, 0x40, 0xe0, 0x9e, 0xbf, 0x89, 0x32, 0x37, 0xbf,
    0xb0, 0x7c, 0xe0, 0x3f, 0x1c, 0x91, 0x86, 0x3e, 0xd6, 0x70, 0x24, 0x3f,
    0x84, 0x44, 0x12, 0xbf, 0xb2, 0x43, 0x3a, 0xc0, 0xcf, 0x5c, 0x17, 0xc0,
    0xab, 0x0f, 0x1e, 0xc0, 0xf9, 0x5b, 0xc9, 0x3f, 0x53, 0x74, 0x86, 0xc0,
    0xf0, 0xa2, 0x0b, 0xc0, 0x0e, 0x53, 0x04, 0xbc, 0x79, 0x7c, 0x25, 0xbe,
    0xd2, 0xb4, 0xa8, 0x3f, 0xb8, 0xfc, 0x1c, 0x3e, 0xc4, 0x1b, 0xed, 0x3e,
    0xf8, 0x98, 0x4e, 0xbf, 0x9c, 0x27, 0x1a, 0xbf, 0xdb, 0x16, 0x91, 0xbf,
    0x62, 0xe7, 0xba, 0x3e, 0x45, 0x2e, 0x31, 0x3f, 0x8b, 0x73, 0xbf, 0xbf,
    0xce, 0x4c, 0x6d, 0x3f, 0x81, 0x2d, 0xe0, 0xbe, 0xb4, 0x7a, 0xca, 0x3e,
    0x8d, 0xb4, 0xdd, 0x3d, 0xb0, 0xde, 0x64, 0xbd, 0x46, 0x82, 0xa1, 0xc0,
    0xd7, 0x39, 0x3e, 0x3f, 0x12, 0x07, 0x72, 0x3f, 0x9d, 0xcb, 0xdc, 0xbf,
    0xa0, 0x75, 0x98, 0x3f, 0xe3, 0x1a, 0x7e, 0x3e, 0xda, 0xa5, 0x59, 0x3f,
    0xcf, 0x8e, 0xc6, 0x3f, 0xca, 0x2e, 0x14, 0xc0, 0x59, 0x5a, 0x76, 0xc0,
    0xcc, 0x88, 0xeb, 0xbf, 0x1e, 0xff, 0xff, 0xff, 0x04, 0x00, 0x00, 0x00,
    0x14, 0x00, 0x00, 0x00, 0x1e, 0x41, 0xfc, 0x3e, 0x49, 0x44, 0x18, 0x3f,
    0x49, 0xc0, 0x28, 0xbc, 0xa3, 0x3b, 0x94, 0x3e, 0x50, 0x45, 0x40, 0xc0,
    0x3e, 0xff, 0xff, 0xff, 0x04, 0x00, 0x00, 0x00, 0x20, 0x00, 0x00, 0x00,
    0x69, 0xd7, 0x82, 0x3f, 0xf7, 0x94, 0x89, 0x3e, 0x26, 0x5e, 0xbd, 0x3e,
    0x16, 0xfb, 0x0b, 0x3f, 0xfb, 0x6b, 0x13, 0xbf, 0x1e, 0x84, 0xaa, 0x3f,
    0x4d, 0xff, 0xa3, 0x3f, 0x2b, 0x9b, 0x18, 0x3f, 0x1c, 0xfa, 0xff, 0xff,
    0x20, 0xfa, 0xff, 0xff, 0x0f, 0x00, 0x00, 0x00, 0x4d, 0x4c, 0x49, 0x52,
    0x20, 0x43, 0x6f, 0x6e, 0x76, 0x65, 0x72, 0x74, 0x65, 0x64, 0x2e, 0x00,
    0x01, 0x00, 0x00, 0x00, 0x14, 0x00, 0x00, 0x00, 0x00, 0x00, 0x0e, 0x00,
    0x18, 0x00, 0x14, 0x00, 0x10, 0x00, 0x0c, 0x00, 0x08, 0x00, 0x04, 0x00,
    0x0e, 0x00, 0x00, 0x00, 0x14, 0x00, 0x00, 0x00, 0x1c, 0x00, 0x00, 0x00,
    0x24, 0x01, 0x00, 0x00, 0x28, 0x01, 0x00, 0x00, 0x2c, 0x01, 0x00, 0x00,
    0x04, 0x00, 0x00, 0x00, 0x6d, 0x61, 0x69, 0x6e, 0x00, 0x00, 0x00, 0x00,
    0x04, 0x00, 0x00, 0x00, 0xcc, 0x00, 0x00, 0x00, 0x84, 0x00, 0x00, 0x00,
    0x50, 0x00, 0x00, 0x00, 0x14, 0x00, 0x00, 0x00, 0x00, 0x00, 0x0e, 0x00,
    0x1a, 0x00, 0x14, 0x00, 0x10, 0x00, 0x0c, 0x00, 0x0b, 0x00, 0x04, 0x00,
    0x0e, 0x00, 0x00, 0x00, 0x1c, 0x00, 0x00, 0x00, 0x00, 0x00, 0x00, 0x09,
    0x1c, 0x00, 0x00, 0x00, 0x20, 0x00, 0x00, 0x00, 0x01, 0x00, 0x00, 0x00,
    0x00, 0x00, 0x06, 0x00, 0x08, 0x00, 0x04, 0x00, 0x06, 0x00, 0x00, 0x00,
    0x00, 0x00, 0x80, 0x3f, 0x01, 0x00, 0x00, 0x00, 0x0a, 0x00, 0x00, 0x00,
    0x01, 0x00, 0x00, 0x00, 0x09, 0x00, 0x00, 0x00, 0x9a, 0xff, 0xff, 0xff,
    0x10, 0x00, 0x00, 0x00, 0x00, 0x00, 0x00, 0x08, 0x0c, 0x00, 0x00, 0x00,
    0x10, 0x00, 0x00, 0x00, 0xe4, 0xfa, 0xff, 0xff, 0x01, 0x00, 0x00, 0x00,
    0x09, 0x00, 0x00, 0x00, 0x03, 0x00, 0x00, 0x00, 0x08, 0x00, 0x00, 0x00,
    0x03, 0x00, 0x00, 0x00, 0x02, 0x00, 0x00, 0x00, 0xca, 0xff, 0xff, 0xff,
    0x10, 0x00, 0x00, 0x00, 0x00, 0x00, 0x00, 0x08, 0x10, 0x00, 0x00, 0x00,
    0x14, 0x00, 0x00, 0x00, 0xba, 0xff, 0xff, 0xff, 0x00, 0x00, 0x00, 0x01,
    0x01, 0x00, 0x00, 0x00, 0x08, 0x00, 0x00, 0x00, 0x03, 0x00, 0x00, 0x00,
    0x07, 0x00, 0x00, 0x00, 0x04, 0x00, 0x00, 0x00, 0x01, 0x00, 0x00, 0x00,
    0x00, 0x00, 0x0e, 0x00, 0x16, 0x00, 0x00, 0x00, 0x10, 0x00, 0x0c, 0x00,
    0x0b, 0x00, 0x04, 0x00, 0x0e, 0x00, 0x00, 0x00, 0x18, 0x00, 0x00, 0x00,
    0x00, 0x00, 0x00, 0x08, 0x18, 0x00, 0x00, 0x00, 0x1c, 0x00, 0x00, 0x00,
    0x00, 0x00, 0x06, 0x00, 0x08, 0x00, 0x07, 0x00, 0x06, 0x00, 0x00, 0x00,
    0x00, 0x00, 0x00, 0x01, 0x01, 0x00, 0x00, 0x00, 0x07, 0x00, 0x00, 0x00,
    0x03, 0x00, 0x00, 0x00, 0x00, 0x00, 0x00, 0x00, 0x05, 0x00, 0x00, 0x00,
    0x06, 0x00, 0x00, 0x00, 0x01, 0x00, 0x00, 0x00, 0x0a, 0x00, 0x00, 0x00,
    0x01, 0x00, 0x00, 0x00, 0x00, 0x00, 0x00, 0x00, 0x0b, 0x00, 0x00, 0x00,
    0x44, 0x04, 0x00, 0x00, 0xc4, 0x03, 0x00, 0x00, 0x60, 0x03, 0x00, 0x00,
    0x10, 0x03, 0x00, 0x00, 0xc0, 0x02, 0x00, 0x00, 0x74, 0x02, 0x00, 0x00,
    0x10, 0x02, 0x00, 0x00, 0x7c, 0x01, 0x00, 0x00, 0xe0, 0x00, 0x00, 0x00,
    0x60, 0x00, 0x00, 0x00, 0x04, 0x00, 0x00, 0x00, 0xfe, 0xfb, 0xff, 0xff,
    0x00, 0x00, 0x00, 0x01, 0x14, 0x00, 0x00, 0x00, 0x1c, 0x00, 0x00, 0x00,
    0x1c, 0x00, 0x00, 0x00, 0x0b, 0x00, 0x00, 0x00, 0x34, 0x00, 0x00, 0x00,
    0x02, 0x00, 0x00, 0x00, 0xff, 0xff, 0xff, 0xff, 0x05, 0x00, 0x00, 0x00,
    0xe8, 0xfb, 0xff, 0xff, 0x1b, 0x00, 0x00, 0x00, 0x53, 0x74, 0x61, 0x74,
    0x65, 0x66, 0x75, 0x6c, 0x50, 0x61, 0x72, 0x74, 0x69, 0x74, 0x69, 0x6f,
    0x6e, 0x65, 0x64, 0x43, 0x61, 0x6c, 0x6c, 0x5f, 0x31, 0x3a, 0x30, 0x00,
    0x02, 0x00, 0x00, 0x00, 0x01, 0x00, 0x00, 0x00, 0x05, 0x00, 0x00, 0x00,
    0x56, 0xfc, 0xff, 0xff, 0x00, 0x00, 0x00, 0x01, 0x14, 0x00, 0x00, 0x00,
    0x1c, 0x00, 0x00, 0x00, 0x1c, 0x00, 0x00, 0x00, 0x0a, 0x00, 0x00, 0x00,
    0x58, 0x00, 0x00, 0x00, 0x02, 0x00, 0x00, 0x00, 0xff, 0xff, 0xff, 0xff,
    0x05, 0x00, 0x00, 0x00, 0x40, 0xfc, 0xff, 0xff, 0x3c, 0x00, 0x00, 0x00,
    0x73, 0x65, 0x71, 0x75, 0x65, 0x6e, 0x74, 0x69, 0x61, 0x6c, 0x5f, 0x31,
    0x2f, 0x64, 0x65, 0x6e, 0x73, 0x65, 0x5f, 0x32, 0x5f, 0x31, 0x2f, 0x4d,
    0x61, 0x74, 0x4d, 0x75, 0x6c, 0x3b, 0x73, 0x65, 0x71, 0x75, 0x65, 0x6e,
    0x74, 0x69, 0x61, 0x6c, 0x5f, 0x31, 0x2f, 0x64, 0x65, 0x6e, 0x73, 0x65,
    0x5f, 0x32, 0x5f, 0x31, 0x2f, 0x42, 0x69, 0x61, 0x73, 0x41, 0x64, 0x64,
    0x00, 0x00, 0x00, 0x00, 0x02, 0x00, 0x00, 0x00, 0x01, 0x00, 0x00, 0x00,
    0x05, 0x00, 0x00, 0x00, 0xd2, 0xfc, 0xff, 0xff, 0x00, 0x00, 0x00, 0x01,
    0x14, 0x00, 0x00, 0x00, 0x1c, 0x00, 0x00, 0x00, 0x1c, 0x00, 0x00, 0x00,
    0x09, 0x00, 0x00, 0x00, 0x74, 0x00, 0x00, 0x00, 0x02, 0x00, 0x00, 0x00,
    0xff, 0xff, 0xff, 0xff, 0x08, 0x00, 0x00, 0x00, 0xbc, 0xfc, 0xff, 0xff,
    0x58, 0x00, 0x00, 0x00, 0x73, 0x65, 0x71, 0x75, 0x65, 0x6e, 0x74, 0x69,
    0x61, 0x6c, 0x5f, 0x31, 0x2f, 0x64, 0x65, 0x6e, 0x73, 0x65, 0x5f, 0x31,
    0x5f, 0x32, 0x2f, 0x4d, 0x61, 0x74, 0x4d, 0x75, 0x6c, 0x3b, 0x73, 0x65,
    0x71, 0x75, 0x65, 0x6e, 0x74, 0x69, 0x61, 0x6c, 0x5f, 0x31, 0x2f, 0x64,
    0x65, 0x6e, 0x73, 0x65, 0x5f, 0x31, 0x5f, 0x32, 0x2f, 0x52, 0x65, 0x6c,
    0x75, 0x3b, 0x73, 0x65, 0x71, 0x75, 0x65, 0x6e, 0x74, 0x69, 0x61, 0x6c,
    0x5f, 0x31, 0x2f, 0x64, 0x65, 0x6e, 0x73, 0x65, 0x5f, 0x31, 0x5f, 0x32,
    0x2f, 0x42, 0x69, 0x61, 0x73, 0x41, 0x64, 0x64, 0x00, 0x00, 0x00, 0x00,
    0x02, 0x00, 0x00, 0x00, 0x01, 0x00, 0x00, 0x00, 0x08, 0x00, 0x00, 0x00,
    0x6a, 0xfd, 0xff, 0xff, 0x00, 0x00, 0x00, 0x01, 0x14, 0x00, 0x00, 0x00,
    0x1c, 0x00, 0x00, 0x00, 0x1c, 0x00, 0x00, 0x00, 0x08, 0x00, 0x00, 0x00,
    0x6c, 0x00, 0x00, 0x00, 0x02, 0x00, 0x00, 0x00, 0xff, 0xff, 0xff, 0xff,
    0x10, 0x00, 0x00, 0x00, 0x54, 0xfd, 0xff, 0xff, 0x52, 0x00, 0x00, 0x00,
    0x73, 0x65, 0x71, 0x75, 0x65, 0x6e, 0x74, 0x69, 0x61, 0x6c, 0x5f, 0x31,
    0x2f, 0x64, 0x65, 0x6e, 0x73, 0x65, 0x5f, 0x31, 0x2f, 0x4d, 0x61, 0x74,
    0x4d, 0x75, 0x6c, 0x3b, 0x73, 0x65, 0x71, 0x75, 0x65, 0x6e, 0x74, 0x69,
    0x61, 0x6c, 0x5f, 0x31, 0x2f, 0x64, 0x65, 0x6e, 0x73, 0x65, 0x5f, 0x31,
    0x2f, 0x52, 0x65, 0x6c, 0x75, 0x3b, 0x73, 0x65, 0x71, 0x75, 0x65, 0x6e,
    0x74, 0x69, 0x61, 0x6c, 0x5f, 0x31, 0x2f, 0x64, 0x65, 0x6e, 0x73, 0x65,
    0x5f, 0x31, 0x2f, 0x42, 0x69, 0x61, 0x73, 0x41, 0x64, 0x64, 0x00, 0x00,
    0x02, 0x00, 0x00, 0x00, 0x01, 0x00, 0x00, 0x00, 0x10, 0x00, 0x00, 0x00,
    0x76, 0xfe, 0xff, 0xff, 0x00, 0x00, 0x00, 0x01, 0x10, 0x00, 0x00, 0x00,
    0x10, 0x00, 0x00, 0x00, 0x07, 0x00, 0x00, 0x00, 0x44, 0x00, 0x00, 0x00,
    0xd4, 0xfd, 0xff, 0xff, 0x36, 0x00, 0x00, 0x00, 0x73, 0x65, 0x71, 0x75,
    0x65, 0x6e, 0x74, 0x69, 0x61, 0x6c, 0x5f, 0x31, 0x2f, 0x64, 0x65, 0x6e,
    0x73, 0x65, 0x5f, 0x31, 0x2f, 0x52, 0x65, 0x6c, 0x75, 0x3b, 0x73, 0x65,
    0x71, 0x75, 0x65, 0x6e, 0x74, 0x69, 0x61, 0x6c, 0x5f, 0x31, 0x2f, 0x64,
    0x65, 0x6e, 0x73, 0x65, 0x5f, 0x31, 0x2f, 0x42, 0x69, 0x61, 0x73, 0x41,
    0x64, 0x64, 0x00, 0x00, 0x01, 0x00, 0x00, 0x00, 0x10, 0x00, 0x00, 0x00,
    0xd6, 0xfe, 0xff, 0xff, 0x00, 0x00, 0x00, 0x01, 0x10, 0x00, 0x00, 0x00,
    0x10, 0x00, 0x00, 0x00, 0x06, 0x00, 0x00, 0x00, 0x28, 0x00, 0x00, 0x00,
    0x34, 0xfe, 0xff, 0xff, 0x1b, 0x00, 0x00, 0x00, 0x73, 0x65, 0x71, 0x75,
    0x65, 0x6e, 0x74, 0x69, 0x61, 0x6c, 0x5f, 0x31, 0x2f, 0x64, 0x65, 0x6e,
    0x73, 0x65, 0x5f, 0x31, 0x2f, 0x4d, 0x61, 0x74, 0x4d, 0x75, 0x6c, 0x00,
    0x02, 0x00, 0x00, 0x00, 0x10, 0x00, 0x00, 0x00, 0x09, 0x00, 0x00, 0x00,
    0x1e, 0xff, 0xff, 0xff, 0x00, 0x00, 0x00, 0x01, 0x10, 0x00, 0x00, 0x00,
    0x10, 0x00, 0x00, 0x00, 0x05, 0x00, 0x00, 0x00, 0x2c, 0x00, 0x00, 0x00,
    0x7c, 0xfe, 0xff, 0xff, 0x1d, 0x00, 0x00, 0x00, 0x73, 0x65, 0x71, 0x75,
    0x65, 0x6e, 0x74, 0x69, 0x61, 0x6c, 0x5f, 0x31, 0x2f, 0x64, 0x65, 0x6e,
    0x73, 0x65, 0x5f, 0x31, 0x5f, 0x32, 0x2f, 0x4d, 0x61, 0x74, 0x4d, 0x75,
    0x6c, 0x00, 0x00, 0x00, 0x02, 0x00, 0x00, 0x00, 0x08, 0x00, 0x00, 0x00,
    0x10, 0x00, 0x00, 0x00, 0x6a, 0xff, 0xff, 0xff, 0x00, 0x00, 0x00, 0x01,
    0x10, 0x00, 0x00, 0x00, 0x10, 0x00, 0x00, 0x00, 0x04, 0x00, 0x00, 0x00,
    0x2c, 0x00, 0x00, 0x00, 0xc8, 0xfe, 0xff, 0xff, 0x1d, 0x00, 0x00, 0x00,
    0x73, 0x65, 0x71, 0x75, 0x65, 0x6e, 0x74, 0x69, 0x61, 0x6c, 0x5f, 0x31,
    0x2f, 0x64, 0x65, 0x6e, 0x73, 0x65, 0x5f, 0x32, 0x5f, 0x31, 0x2f, 0x4d,
    0x61, 0x74, 0x4d, 0x75, 0x6c, 0x00, 0x00, 0x00, 0x02, 0x00, 0x00, 0x00,
    0x05, 0x00, 0x00, 0x00, 0x08, 0x00, 0x00, 0x00, 0xb6, 0xff, 0xff, 0xff,
    0x00, 0x00, 0x00, 0x01, 0x10, 0x00, 0x00, 0x00, 0x10, 0x00, 0x00, 0x00,
    0x03, 0x00, 0x00, 0x00, 0x2c, 0x00, 0x00, 0x00, 0x14, 0xff, 0xff, 0xff,
    0x1e, 0x00, 0x00, 0x00, 0x73, 0x65, 0x71, 0x75, 0x65, 0x6e, 0x74, 0x69,
    0x61, 0x6c, 0x5f, 0x31, 0x2f, 0x64, 0x65, 0x6e, 0x73, 0x65, 0x5f, 0x32,
    0x5f, 0x31, 0x2f, 0x42, 0x69, 0x61, 0x73, 0x41, 0x64, 0x64, 0x00, 0x00,
    0x01, 0x00, 0x00, 0x00, 0x05, 0x00, 0x00, 0x00, 0x00, 0x00, 0x16, 0x00,
    0x18, 0x00, 0x14, 0x00, 0x00, 0x00, 0x10, 0x00, 0x0c, 0x00, 0x08, 0x00,
    0x00, 0x00, 0x00, 0x00, 0x00, 0x00, 0x07, 0x00, 0x16, 0x00, 0x00, 0x00,
    0x00, 0x00, 0x00, 0x01, 0x10, 0x00, 0x00, 0x00, 0x10, 0x00, 0x00, 0x00,
    0x02, 0x00, 0x00, 0x00, 0x48, 0x00, 0x00, 0x00, 0x74, 0xff, 0xff, 0xff,
    0x3a, 0x00, 0x00, 0x00, 0x73, 0x65, 0x71, 0x75, 0x65, 0x6e, 0x74, 0x69,
    0x61, 0x6c, 0x5f, 0x31, 0x2f, 0x64, 0x65, 0x6e, 0x73, 0x65, 0x5f, 0x31,
    0x5f, 0x32, 0x2f, 0x52, 0x65, 0x6c, 0x75, 0x3b, 0x73, 0x65, 0x71, 0x75,
    0x65, 0x6e, 0x74, 0x69, 0x61, 0x6c, 0x5f, 0x31, 0x2f, 0x64, 0x65, 0x6e,
    0x73, 0x65, 0x5f, 0x31, 0x5f, 0x32, 0x2f, 0x42, 0x69, 0x61, 0x73, 0x41,
    0x64, 0x64, 0x00, 0x00, 0x01, 0x00, 0x00, 0x00, 0x08, 0x00, 0x00, 0x00,
    0x00, 0x00, 0x16, 0x00, 0x1c, 0x00, 0x18, 0x00, 0x00, 0x00, 0x14, 0x00,
    0x10, 0x00, 0x0c, 0x00, 0x00, 0x00, 0x00, 0x00, 0x08, 0x00, 0x07, 0x00,
    0x16, 0x00, 0x00, 0x00, 0x00, 0x00, 0x00, 0x01, 0x14, 0x00, 0x00, 0x00,
    0x20, 0x00, 0x00, 0x00, 0x20, 0x00, 0x00, 0x00, 0x01, 0x00, 0x00, 0x00,
    0x3c, 0x00, 0x00, 0x00, 0x02, 0x00, 0x00, 0x00, 0xff, 0xff, 0xff, 0xff,
    0x09, 0x00, 0x00, 0x00, 0x04, 0x00, 0x04, 0x00, 0x04, 0x00, 0x00, 0x00,
    0x1e, 0x00, 0x00, 0x00, 0x73, 0x65, 0x72, 0x76, 0x69, 0x6e, 0x67, 0x5f,
    0x64, 0x65, 0x66, 0x61, 0x75, 0x6c, 0x74, 0x5f, 0x6b, 0x65, 0x72, 0x61,
    0x73, 0x5f, 0x74, 0x65, 0x6e, 0x73, 0x6f, 0x72, 0x3a, 0x30, 0x00, 0x00,
    0x02, 0x00, 0x00, 0x00, 0x01, 0x00, 0x00, 0x00, 0x09, 0x00, 0x00, 0x00,
    0x02, 0x00, 0x00, 0x00, 0x20, 0x00, 0x00, 0x00, 0x04, 0x00, 0x00, 0x00,
    0xf4, 0xff, 0xff, 0xff, 0x19, 0x00, 0x00, 0x00, 0x00, 0x00, 0x00, 0x19,
    0x0c, 0x00, 0x0c, 0x00, 0x0b, 0x00, 0x00, 0x00, 0x00, 0x00, 0x04, 0x00,
    0x0c, 0x00, 0x00, 0x00, 0x09, 0x00, 0x00, 0x00, 0x00, 0x00, 0x00, 0x09,
};

const unsigned int g_model_len = 3540;

#endif // MODEL_H
